#include "model.h"

alignas(8) const unsigned char g_model[] = {
    0x1c, 0x00, 0x00, 0x00, 0x54, 0x46, 0x4c, 0x33, 0x14, 0x00, 0x20, 0x00,
    0x1c, 0x00, 0x18, 0x00, 0x14, 0x00, 0x10, 0x00, 0x0c, 0x00, 0x00, 0x00,
    0x08, 0x00, 0x04, 0x00, 0x14, 0x00, 0x00, 0x00, 0x1c, 0x00, 0x00, 0x00,
    0x98, 0x00, 0x00, 0x00, 0xf0, 0x00, 0x00, 0x00, 0x14, 0x07, 0x00, 0x00,
    0x24, 0x07, 0x00, 0x00, 0x0c, 0x0c, 0x00, 0x00, 0x03, 0x00, 0x00, 0x00,
    0x01, 0x00, 0x00, 0x00, 0x10, 0x00, 0x00, 0x00, 0x00, 0x00, 0x0a, 0x00,
    0x10, 0x00, 0x0c, 0x00, 0x08, 0x00, 0x04, 0x00, 0x0a, 0x00, 0x00, 0x00,
    0x0c, 0x00, 0x00, 0x00, 0x1c, 0x00, 0x00, 0x00, 0x3c, 0x00, 0x00, 0x00,
    0x0f, 0x00, 0x00, 0x00, 0x73, 0x65, 0x72, 0x76, 0x69, 0x6e, 0x67, 0x5f,
    0x64, 0x65, 0x66, 0x61, 0x75, 0x6c, 0x74, 0x00, 0x01, 0x00, 0x00, 0x00,
    0x04, 0x00, 0x00, 0x00, 0x90, 0xff, 0xff, 0xff, 0x09, 0x00, 0x00, 0x00,
    0x04, 0x00, 0x00, 0x00, 0x08, 0x00, 0x00, 0x00, 0x6f, 0x75, 0x74, 0x70,
    0x75, 0x74, 0x5f, 0x30, 0x00, 0x00, 0x00, 0x00, 0x01, 0x00, 0x00, 0x00,
    0x04, 0x00, 0x00, 0x00, 0xba, 0xf9, 0xff, 0xff, 0x04, 0x00, 0x00, 0x00,
    0x0c, 0x00, 0x00, 0x00, 0x6b, 0x65, 0x72, 0x61, 0x73, 0x5f, 0x74, 0x65,
    0x6e, 0x73, 0x6f, 0x72, 0x00, 0x00, 0x00, 0x00, 0x02, 0x00, 0x00, 0x00,
    0x34, 0x00, 0x00, 0x00, 0x04, 0x00, 0x00, 0x00, 0xdc, 0xff, 0xff, 0xff,
    0x0c, 0x00, 0x00, 0x00, 0x04, 0x00, 0x00, 0x00, 0x13, 0x00, 0x00, 0x00,
    0x43, 0x4f, 0x4e, 0x56, 0x45, 0x52, 0x53, 0x49, 0x4f, 0x4e, 0x5f, 0x4d,
    0x45, 0x54, 0x41, 0x44, 0x41, 0x54, 0x41, 0x00, 0x08, 0x00, 0x0c, 0x00,
    0x08, 0x00, 0x04, 0x00, 0x08, 0x00, 0x00, 0x00, 0x0b, 0x00, 0x00, 0x00,
    0x04, 0x00, 0x00, 0x00, 0x13, 0x00, 0x00, 0x00, 0x6d, 0x69, 0x6e, 0x5f,
    0x72, 0x75, 0x6e, 0x74, 0x69, 0x6d, 0x65, 0x5f, 0x76, 0x65, 0x72, 0x73,
    0x69, 0x6f, 0x6e, 0x00, 0x0d, 0x00, 0x00, 0x00, 0x20, 0x06, 0x00, 0x00,
    0x18, 0x06, 0x00, 0x00, 0xc8, 0x05, 0x00, 0x00, 0xb0, 0x01, 0x00, 0x00,
    0x9c, 0x01, 0x00, 0x00, 0x4c, 0x01, 0x00, 0x00, 0xfc, 0x00, 0x00, 0x00,
    0xac, 0x00, 0x00, 0x00, 0xa4, 0x00, 0x00, 0x00, 0x9c, 0x00, 0x00, 0x00,
    0x94, 0x00, 0x00, 0x00, 0x74, 0x00, 0x00, 0x00, 0x04, 0x00, 0x00, 0x00,
    0x6a, 0xfa, 0xff, 0xff, 0x04, 0x00, 0x00, 0x00, 0x60, 0x00, 0x00, 0x00,
    0x0c, 0x00, 0x00, 0x00, 0x08, 0x00, 0x0e, 0x00, 0x08, 0x00, 0x04, 0x00,
    0x08, 0x00, 0x00, 0x00, 0x10, 0x00, 0x00, 0x00, 0x28, 0x00, 0x00, 0x00,
    0x00, 0x00, 0x06, 0x00, 0x08, 0x00, 0x04, 0x00, 0x06, 0x00, 0x00, 0x00,
    0x04, 0x00, 0x00, 0x00, 0x01, 0x00, 0x00, 0x00, 0xea, 0x03, 0x00, 0x00,
    0x0c, 0x00, 0x18, 0x00, 0x14, 0x00, 0x10, 0x00, 0x0c, 0x00, 0x04, 0x00,
    0x0c, 0x00, 0x00, 0x00, 0xec, 0xb7, 0xa8, 0x9a, 0xd0, 0xf4, 0x0a, 0xe3,
    0x02, 0x00, 0x00, 0x00, 0x02, 0x00, 0x00, 0x00, 0x04, 0x00, 0x00, 0x00,
    0x06, 0x00, 0x00, 0x00, 0x32, 0x2e, 0x31, 0x39, 0x2e, 0x30, 0x00, 0x00,
    0xd6, 0xfa, 0xff, 0xff, 0x04, 0x00, 0x00, 0x00, 0x10, 0x00, 0x00, 0x00,
    0x31, 0x2e, 0x35, 0x2e, 0x30, 0x00, 0x00, 0x00, 0x00, 0x00, 0x00, 0x00,
    0x00, 0x00, 0x00, 0x00, 0xd0, 0xf5, 0xff, 0xff, 0xd4, 0xf5, 0xff, 0xff,
    0xd8, 0xf5, 0xff, 0xff, 0xfe, 0xfa, 0xff, 0xff, 0x04, 0x00, 0x00, 0x00,
    0x40, 0x00, 0x00, 0x00, 0x33, 0x05, 0xe2, 0x3e, 0x25, 0xa0, 0xf2, 0x3e,
    0xd5, 0xa5, 0xb3, 0x3e, 0x9b, 0x9b, 0x4a, 0x3e, 0xbe, 0x5c, 0x4a, 0xbe,
    0x66, 0x10, 0x3b, 0xbe, 0x41, 0x46, 0x87, 0x3e, 0xcc, 0x97, 0xeb, 0xbe,
    0x6f, 0xd4, 0xcf, 0x3e, 0x58, 0xd2, 0xe3, 0x3e, 0x26, 0xbb, 0x4b, 0xbe,
    0xcd, 0xa9, 0xa7, 0xbe, 0xac, 0x48, 0x10, 0x3e, 0xe5, 0x03, 0x07, 0xbf,
    0x32, 0x7b, 0x7e, 0xbe, 0x17, 0x63, 0xb6, 0xbe, 0x4a, 0xfb, 0xff, 0xff,
    0x04, 0x00, 0x00, 0x00, 0x40, 0x00, 0x00, 0x00, 0xa0, 0xa1, 0x87, 0xbf,
    0x2e, 0x86, 0xcb, 0xbb, 0x18, 0xe1, 0x33, 0xbf, 0x52, 0xf0, 0xe6, 0x3e,
    0x00, 0x00, 0x00, 0x00, 0x00, 0x00, 0x00, 0x00, 0x2d, 0x97, 0xe0, 0xbe,
    0x00, 0x00, 0x00, 0x00, 0xb4, 0x23, 0x54, 0x3f, 0xb9, 0xc8, 0xff, 0xbe,
    0x00, 0x00, 0x00, 0x00, 0x00, 0x00, 0x00, 0x00, 0x05, 0x34, 0xfb, 0xbd,
    0x00, 0x00, 0x00, 0x00, 0x00, 0x00, 0x00, 0x00, 0x00, 0x00, 0x00, 0x00,
    0x96, 0xfb, 0xff, 0xff, 0x04, 0x00, 0x00, 0x00, 0x40, 0x00, 0x00, 0x00,
    0x00, 0x00, 0x00, 0x00, 0x51, 0x90, 0x0a, 0x3d, 0x18, 0x6c, 0x19, 0xbf,
    0x1e, 0xa6, 0xb7, 0x3e, 0x32, 0x0a, 0x09, 0x3f, 0x46, 0x44, 0x25, 0xbe,
    0xda, 0xd9, 0xfe, 0x3c, 0xf3, 0x67, 0xb0, 0x3d, 0x3a, 0x9d, 0xb0, 0xbd,
    0xcd, 0x17, 0x2f, 0x3e, 0x00, 0x00, 0x00, 0x00, 0xa1, 0xd0, 0x7c, 0xbd,
    0x4f, 0xe5, 0x6d, 0x3e, 0x00, 0x00, 0x00, 0x00, 0xb1, 0x6c, 0x05, 0x3f,
    0x00, 0x00, 0x00, 0x00, 0xe2, 0xfb, 0xff, 0xff, 0x04, 0x00, 0x00, 0x00,
    0x04, 0x00, 0x00, 0x00, 0x7c, 0x62, 0x61, 0xbe, 0xf2, 0xfb, 0xff, 0xff,
    0x04, 0x00, 0x00, 0x00, 0x00, 0x04, 0x00, 0x00, 0x80, 0x38, 0xbe, 0xbb,
    0x3e, 0x37, 0x5d, 0xbe, 0x78, 0x48, 0x75, 0xbd, 0x2c, 0x7d, 0xdd, 0xbd,
    0x58, 0x71, 0x6c, 0x3d, 0xb5, 0x4c, 0xd9, 0xbe, 0xfc, 0xd8, 0x8d, 0xbe,
    0x1e, 0x2a, 0x50, 0x3e, 0xa8, 0x91, 0x5e, 0xbd, 0x2e, 0x76, 0x75, 0x3e,
    0x50, 0x58, 0xaf, 0xbd, 0xfa, 0x18, 0x44, 0xbe, 0x6b, 0x11, 0xae, 0x3e,
    0x62, 0xa1, 0x2c, 0x3e, 0xa0, 0x38, 0xba, 0xbe, 0x69, 0x9e, 0xcf, 0x3e,
    0xc9, 0x17, 0xe8, 0x3c, 0xf5, 0x45, 0x8d, 0x3e, 0x40, 0x13, 0x09, 0x3e,
    0x04, 0x48, 0xac, 0xbd, 0xde, 0x3e, 0xbd, 0xbe, 0xb4, 0x11, 0xf2, 0x3d,
    0x13, 0xf8, 0x03, 0xbf, 0x88, 0x79, 0x97, 0xbe, 0x66, 0x71, 0x6f, 0x3e,
    0xb2, 0xa6, 0xc6, 0xbe, 0x81, 0x77, 0xd3, 0xbe, 0xbc, 0x77, 0xd3, 0xbe,
    0x09, 0x45, 0x20, 0xbd, 0xc2, 0x1a, 0x3a, 0x3e, 0x84, 0xcc, 0xcc, 0x3d,
    0xa6, 0xf6, 0x04, 0x3e, 0xf6, 0xce, 0x4f, 0x3f, 0xe7, 0xec, 0x57, 0x3e,
    0xfa, 0xcd, 0x15, 0x3f, 0x4d, 0x78, 0x56, 0xbe, 0x68, 0x78, 0x29, 0x3d,
    0x34, 0xda, 0xe5, 0xbd, 0x20, 0x29, 0x0b, 0x3c, 0xf2, 0x5a, 0x66, 0x3e,
    0x16, 0xce, 0x02, 0xbf, 0x2b, 0x30, 0x70, 0x3e, 0x0c, 0x2f, 0x69, 0xbe,
    0xb0, 0x38, 0x2b, 0x3d, 0x37, 0xa8, 0x68, 0xbe, 0xfc, 0x8e, 0x8f, 0x3d,
    0x5c, 0x33, 0xaa, 0xbd, 0x3b, 0xc3, 0xc4, 0xbe, 0x28, 0x10, 0x18, 0xbd,
    0x09, 0x31, 0x4a, 0xbf, 0x45, 0x6f, 0xaa, 0x3e, 0xb6, 0x03, 0x5d, 0xbe,
    0x48, 0xed, 0x50, 0xbd, 0x63, 0xc2, 0xb6, 0xbe, 0x34, 0xf8, 0x9c, 0xbe,
    0x2a, 0x0c, 0x01, 0xbe, 0xfb, 0x76, 0x86, 0xbc, 0x49, 0xe0, 0xb5, 0xbe,
    0x52, 0x9e, 0xcd, 0xbe, 0x84, 0xbc, 0x0d, 0xbe, 0x7a, 0xf8, 0x01, 0xbe,
    0xb3, 0x6a, 0x8c, 0x3e, 0xb6, 0x1e, 0xa5, 0xbe, 0x5d, 0x3f, 0xa5, 0x3e,
    0xfc, 0x63, 0x3d, 0xbe, 0x5a, 0xd3, 0x4f, 0xbf, 0xf6, 0xc9, 0x48, 0xbe,
    0x42, 0x9f, 0xcc, 0xbe, 0x14, 0xcc, 0x9a, 0xbe, 0x8c, 0x05, 0xac, 0xbd,
    0xe4, 0xbc, 0xfe, 0x3d, 0xf6, 0xdf, 0x0e, 0xbe, 0x9c, 0xc1, 0x2c, 0x3e,
    0x1b, 0xeb, 0x07, 0x3e, 0xfa, 0x68, 0x3e, 0x3e, 0x84, 0x5f, 0xcc, 0xbd,
    0x3a, 0x6d, 0x02, 0x3f, 0x33, 0x39, 0xa3, 0x3e, 0xed, 0x5e, 0x79, 0xbe,
    0x6f, 0xb3, 0x8d, 0x3e, 0x1c, 0xf8, 0x20, 0xbe, 0x80, 0x5b, 0xa1, 0x3e,
    0xa3, 0xe0, 0xf3, 0xbd, 0x99, 0x98, 0xfe, 0xbd, 0x79, 0x54, 0xba, 0x3e,
    0x20, 0xb7, 0x2a, 0xbc, 0xe6, 0xf7, 0x56, 0x3d, 0x8b, 0xd5, 0x69, 0xbe,
    0x30, 0x84, 0x37, 0x3d, 0xde, 0x83, 0xe1, 0xbd, 0x4c, 0x47, 0x96, 0x3d,
    0xf2, 0x07, 0x48, 0x3e, 0x30, 0xa8, 0x34, 0xbd, 0x58, 0x2e, 0x0e, 0xbe,
    0xe1, 0xca, 0x66, 0xbe, 0x78, 0xdd, 0x37, 0xbd, 0xc1, 0x7b, 0x54, 0x3e,
    0xb5, 0x05, 0x49, 0x3e, 0x48, 0xfb, 0xf6, 0xbd, 0x57, 0xd7, 0xa6, 0x3e,
    0x00, 0xa1, 0xc2, 0xbb, 0x36, 0xff, 0x6a, 0x3e, 0x30, 0xa5, 0xa3, 0xbe,
    0x50, 0x49, 0xe7, 0xbc, 0x09, 0x42, 0x83, 0xbd, 0xb8, 0x64, 0xd2, 0x3d,
    0x30, 0xc1, 0xd3, 0xbd, 0xd4, 0x6a, 0x9d, 0x3d, 0xb3, 0xb0, 0x67, 0x3e,
    0xac, 0x21, 0xae, 0x3d, 0x3e, 0x79, 0x27, 0x3e, 0xb3, 0x34, 0xb1, 0x3e,
    0xbb, 0x1b, 0xb5, 0xbe, 0x2e, 0x66, 0x73, 0xbd, 0xb3, 0x93, 0x7a, 0x3d,
    0xc1, 0xde, 0xbf, 0xbd, 0xa8, 0xdb, 0xa8, 0xbd, 0x64, 0x4c, 0x9a, 0xbd,
    0x9e, 0x33, 0xc5, 0x3d, 0xef, 0x53, 0x59, 0xbe, 0x50, 0x9f, 0x8f, 0x3e,
    0x3f, 0x66, 0xa6, 0x3e, 0x47, 0x89, 0x87, 0x3e, 0x99, 0x18, 0xd1, 0x3e,
    0x9c, 0xc8, 0xa1, 0xbe, 0x1a, 0xeb, 0xb3, 0xbe, 0x10, 0x99, 0x3e, 0x3d,
    0xf7, 0x35, 0x57, 0xbe, 0xf9, 0x99, 0xb5, 0x3e, 0x63, 0xfd, 0xd3, 0xbe,
    0x70, 0x11, 0x3c, 0xbe, 0x7f, 0xfb, 0x9e, 0xbe, 0xa1, 0xd4, 0x4b, 0xbe,
    0x60, 0x50, 0x22, 0x3c, 0x22, 0x6c, 0x41, 0x3e, 0xa0, 0x36, 0x53, 0xbd,
    0x5e, 0xc5, 0x5c, 0x3e, 0x6c, 0x4d, 0x83, 0xbe, 0x60, 0x18, 0x4b, 0x3d,
    0xf6, 0xcd, 0x49, 0xbe, 0xe6, 0x1b, 0x58, 0x3e, 0x8e, 0x78, 0x48, 0xbe,
    0xc7, 0x5f, 0x7e, 0xbe, 0x9b, 0xd2, 0xa8, 0x3e, 0x61, 0xda, 0xad, 0x3d,
    0x6f, 0x97, 0xa7, 0xbc, 0xe9, 0x6a, 0x71, 0x3e, 0x52, 0xd5, 0x98, 0x3d,
    0x8a, 0x36, 0x08, 0x3e, 0x14, 0x9a, 0x95, 0xbd, 0x61, 0xc3, 0x9f, 0x3e,
    0x35, 0xe6, 0xcb, 0x3e, 0xca, 0x13, 0x3f, 0xbd, 0xd0, 0x8b, 0x14, 0x3e,
    0x9b, 0xaa, 0x4a, 0xbe, 0xe7, 0xff, 0x4b, 0xbe, 0x67, 0x0d, 0xd9, 0xbd,
    0x4b, 0xe2, 0x80, 0x3e, 0x36, 0x47, 0x63, 0xbe, 0xb4, 0x9a, 0x88, 0xbd,
    0x63, 0x83, 0xac, 0x3e, 0x0c, 0x0f, 0xa7, 0xbd, 0xce, 0x3c, 0x17, 0x3e,
    0x78, 0xc4, 0x85, 0xbe, 0x16, 0x51, 0xae, 0xbe, 0x12, 0x18, 0xb7, 0xbe,
    0x49, 0xb9, 0x59, 0xbe, 0x00, 0x58, 0x04, 0xbd, 0x36, 0xb4, 0x83, 0xbe,
    0x24, 0x62, 0x9f, 0x3d, 0xf5, 0x01, 0xd1, 0xbe, 0x60, 0xbb, 0xdb, 0x3c,
    0x9e, 0x4a, 0x23, 0x3e, 0xf8, 0x2b, 0x55, 0xbe, 0x0e, 0x29, 0x5a, 0x3e,
    0x76, 0x8d, 0xb3, 0xbe, 0xb9, 0xb4, 0xc1, 0x3e, 0x8f, 0x13, 0xbb, 0xbe,
    0x1e, 0x5b, 0x98, 0xbe, 0xb6, 0x1e, 0x05, 0x3e, 0xb4, 0xcd, 0xd1, 0xbd,
    0x44, 0x60, 0x8f, 0x3d, 0x09, 0x2d, 0x94, 0xbe, 0xd9, 0xe3, 0xa1, 0xbe,
    0x59, 0x33, 0xba, 0xbc, 0x9a, 0x0f, 0x3c, 0x3e, 0xc4, 0x52, 0x12, 0xbe,
    0x40, 0xc2, 0x9a, 0xbc, 0xbf, 0x96, 0x6a, 0xbe, 0x60, 0x14, 0x74, 0x3d,
    0xa4, 0xce, 0x76, 0xbe, 0x70, 0x6b, 0xe3, 0x3c, 0xa0, 0xf9, 0x17, 0xbf,
    0x7d, 0x9f, 0xa0, 0x3e, 0x3a, 0xd7, 0x92, 0xbe, 0x8e, 0x01, 0x9f, 0x3e,
    0xc7, 0x7b, 0xb9, 0x3e, 0x77, 0x37, 0x87, 0x3e, 0xf1, 0x99, 0x50, 0x3e,
    0x40, 0x62, 0xfc, 0xbc, 0xbd, 0xac, 0x9d, 0x3e, 0x93, 0x8d, 0xdc, 0xbe,
    0xe8, 0x7a, 0xc6, 0xbd, 0x42, 0x14, 0x00, 0x3e, 0xab, 0x2c, 0x2f, 0x3e,
    0x44, 0x20, 0x18, 0xbe, 0x09, 0xf6, 0xa9, 0x3e, 0xa0, 0x06, 0x2d, 0x3c,
    0xaf, 0xc9, 0x88, 0x3e, 0x2f, 0xaf, 0xda, 0xbe, 0x64, 0x42, 0xda, 0xbd,
    0x60, 0xe4, 0x6a, 0x3d, 0x39, 0x7e, 0x89, 0x3e, 0xc6, 0x49, 0xd2, 0xbe,
    0x02, 0x96, 0x20, 0xbe, 0x7c, 0xd5, 0xcb, 0x3d, 0xfc, 0xe2, 0x92, 0xbd,
    0xe3, 0x19, 0x9e, 0xbe, 0x07, 0xa0, 0xae, 0xbe, 0x82, 0x70, 0xb1, 0xbe,
    0xa0, 0xcd, 0x30, 0x3d, 0x1f, 0xc0, 0x96, 0xbe, 0xc0, 0x20, 0x67, 0xbe,
    0xc6, 0x03, 0x04, 0x3e, 0xc8, 0xfc, 0x45, 0xbf, 0xb4, 0xec, 0xb4, 0x3e,
    0x56, 0x9b, 0x58, 0xbf, 0xdf, 0xca, 0xde, 0x3d, 0x9b, 0x32, 0xd4, 0x3e,
    0xa0, 0xc6, 0xdb, 0xbc, 0xfb, 0xfa, 0x83, 0xbf, 0xe1, 0x36, 0xad, 0x3e,
    0x80, 0x2e, 0x02, 0x3f, 0x7e, 0x03, 0xac, 0xbe, 0xea, 0xde, 0x27, 0x3e,
    0x58, 0xca, 0x7a, 0x3d, 0xd6, 0xa7, 0x12, 0xbf, 0xe6, 0x5e, 0x2f, 0x3e,
    0xf9, 0x6a, 0x92, 0x3e, 0x00, 0x22, 0xbe, 0xbb, 0xba, 0xbb, 0x85, 0xbe,
    0xf8, 0x27, 0x2d, 0xbe, 0x15, 0x0a, 0x6c, 0xbe, 0xda, 0x79, 0xc5, 0xbe,
    0x60, 0x83, 0x6b, 0xbc, 0x34, 0x62, 0xbe, 0xbe, 0xb5, 0xf8, 0xbf, 0xbe,
    0xa8, 0x0b, 0x37, 0x3d, 0xb8, 0x56, 0x0b, 0xbd, 0x60, 0xf2, 0x89, 0xbc,
    0xae, 0x7f, 0x3a, 0xbe, 0xfe, 0x53, 0x5c, 0x3e, 0xc0, 0xf5, 0x92, 0x3b,
    0xd7, 0x89, 0xd8, 0xbe, 0xfe, 0x2d, 0x7d, 0x3e, 0x11, 0x2f, 0xcd, 0x3e,
    0x00, 0x00, 0x06, 0x00, 0x08, 0x00, 0x04, 0x00, 0x06, 0x00, 0x00, 0x00,
    0x04, 0x00, 0x00, 0x00, 0x40, 0x00, 0x00, 0x00, 0x10, 0xf4, 0x29, 0x3d,
    0xeb, 0xc0, 0xcb, 0xbd, 0x8a, 0x41, 0xe4, 0x3f, 0x49, 0xbc, 0x0a, 0xbf,
    0x77, 0x60, 0x7d, 0xbf, 0x1d, 0x5c, 0x1c, 0x3e, 0xdc, 0xbb, 0x6d, 0xbe,
    0xe7, 0x86, 0xd3, 0xbe, 0xd9, 0x8b, 0xee, 0x3e, 0x9e, 0x4f, 0xf9, 0xbd,
    0x0f, 0x55, 0x03, 0xbf, 0xc0, 0xc3, 0x34, 0x3e, 0x27, 0x76, 0x0e, 0xbe,
    0x29, 0x3e, 0xa2, 0xbe, 0x23, 0x36, 0x91, 0x3f, 0xdc, 0x01, 0x59, 0x3e,
    0x30, 0xfb, 0xff, 0xff, 0x34, 0xfb, 0xff, 0xff, 0x0f, 0x00, 0x00, 0x00,
    0x4d, 0x4c, 0x49, 0x52, 0x20, 0x43, 0x6f, 0x6e, 0x76, 0x65, 0x72, 0x74,
    0x65, 0x64, 0x2e, 0x00, 0x01, 0x00, 0x00, 0x00, 0x14, 0x00, 0x00, 0x00,
    0x00, 0x00, 0x0e, 0x00, 0x18, 0x00, 0x14, 0x00, 0x10, 0x00, 0x0c, 0x00,
    0x08, 0x00, 0x04, 0x00, 0x0e, 0x00, 0x00, 0x00, 0x14, 0x00, 0x00, 0x00,
    0x1c, 0x00, 0x00, 0x00, 0xd8, 0x00, 0x00, 0x00, 0xdc, 0x00, 0x00, 0x00,
    0xe0, 0x00, 0x00, 0x00, 0x04, 0x00, 0x00, 0x00, 0x6d, 0x61, 0x69, 0x6e,
    0x00, 0x00, 0x00, 0x00, 0x03, 0x00, 0x00, 0x00, 0x80, 0x00, 0x00, 0x00,
    0x38, 0x00, 0x00, 0x00, 0x04, 0x00, 0x00, 0x00, 0x9a, 0xff, 0xff, 0xff,
    0x10, 0x00, 0x00, 0x00, 0x00, 0x00, 0x00, 0x08, 0x0c, 0x00, 0x00, 0x00,
    0x10, 0x00, 0x00, 0x00, 0xac, 0xfb, 0xff, 0xff, 0x01, 0x00, 0x00, 0x00,
    0x09, 0x00, 0x00, 0x00, 0x03, 0x00, 0x00, 0x00, 0x08, 0x00, 0x00, 0x00,
    0x01, 0x00, 0x00, 0x00, 0x03, 0x00, 0x00, 0x00, 0xca, 0xff, 0xff, 0xff,
    0x10, 0x00, 0x00, 0x00, 0x00, 0x00, 0x00, 0x08, 0x10, 0x00, 0x00, 0x00,
    0x14, 0x00, 0x00, 0x00, 0xba, 0xff, 0xff, 0xff, 0x00, 0x00, 0x00, 0x01,
    0x01, 0x00, 0x00, 0x00, 0x08, 0x00, 0x00, 0x00, 0x03, 0x00, 0x00, 0x00,
    0x07, 0x00, 0x00, 0x00, 0x02, 0x00, 0x00, 0x00, 0x04, 0x00, 0x00, 0x00,
    0x00, 0x00, 0x0e, 0x00, 0x16, 0x00, 0x00, 0x00, 0x10, 0x00, 0x0c, 0x00,
    0x0b, 0x00, 0x04, 0x00, 0x0e, 0x00, 0x00, 0x00, 0x18, 0x00, 0x00, 0x00,
    0x00, 0x00, 0x00, 0x08, 0x18, 0x00, 0x00, 0x00, 0x1c, 0x00, 0x00, 0x00,
    0x00, 0x00, 0x06, 0x00, 0x08, 0x00, 0x07, 0x00, 0x06, 0x00, 0x00, 0x00,
    0x00, 0x00, 0x00, 0x01, 0x01, 0x00, 0x00, 0x00, 0x07, 0x00, 0x00, 0x00,
    0x03, 0x00, 0x00, 0x00, 0x00, 0x00, 0x00, 0x00, 0x06, 0x00, 0x00, 0x00,
    0x05, 0x00, 0x00, 0x00, 0x01, 0x00, 0x00, 0x00, 0x09, 0x00, 0x00, 0x00,
    0x01, 0x00, 0x00, 0x00, 0x00, 0x00, 0x00, 0x00, 0x0a, 0x00, 0x00, 0x00,
    0x7c, 0x03, 0x00, 0x00, 0x24, 0x03, 0x00, 0x00, 0xcc, 0x02, 0x00, 0x00,
    0x90, 0x02, 0x00, 0x00, 0x34, 0x02, 0x00, 0x00, 0xdc, 0x01, 0x00, 0x00,
    0x90, 0x01, 0x00, 0x00, 0xfc, 0x00, 0x00, 0x00, 0x60, 0x00, 0x00, 0x00,
    0x04, 0x00, 0x00, 0x00, 0xc2, 0xfc, 0xff, 0xff, 0x00, 0x00, 0x00, 0x01,
    0x14, 0x00, 0x00, 0x00, 0x1c, 0x00, 0x00, 0x00, 0x1c, 0x00, 0x00, 0x00,
    0x0a, 0x00, 0x00, 0x00, 0x34, 0x00, 0x00, 0x00, 0x02, 0x00, 0x00, 0x00,
    0xff, 0xff, 0xff, 0xff, 0x01, 0x00, 0x00, 0x00, 0xac, 0xfc, 0xff, 0xff,
    0x1b, 0x00, 0x00, 0x00, 0x53, 0x74, 0x61, 0x74, 0x65, 0x66, 0x75, 0x6c,
    0x50, 0x61, 0x72, 0x74, 0x69, 0x74, 0x69, 0x6f, 0x6e, 0x65, 0x64, 0x43,
    0x61, 0x6c, 0x6c, 0x5f, 0x31, 0x3a, 0x30, 0x00, 0x02, 0x00, 0x00, 0x00,
    0x01, 0x00, 0x00, 0x00, 0x01, 0x00, 0x00, 0x00, 0x1a, 0xfd, 0xff, 0xff,
    0x00, 0x00, 0x00, 0x01, 0x14, 0x00, 0x00, 0x00, 0x1c, 0x00, 0x00, 0x00,
    0x1c, 0x00, 0x00, 0x00, 0x09, 0x00, 0x00, 0x00, 0x74, 0x00, 0x00, 0x00,
    0x02, 0x00, 0x00, 0x00, 0xff, 0xff, 0xff, 0xff, 0x10, 0x00, 0x00, 0x00,
    0x04, 0xfd, 0xff, 0xff, 0x58, 0x00, 0x00, 0x00, 0x73, 0x65, 0x71, 0x75,
    0x65, 0x6e, 0x74, 0x69, 0x61, 0x6c, 0x5f, 0x31, 0x2f, 0x64, 0x65, 0x6e,
    0x73, 0x65, 0x5f, 0x31, 0x5f, 0x32, 0x2f, 0x4d, 0x61, 0x74, 0x4d, 0x75,
    0x6c, 0x3b, 0x73, 0x65, 0x71, 0x75, 0x65, 0x6e, 0x74, 0x69, 0x61, 0x6c,
    0x5f, 0x31, 0x2f, 0x64, 0x65, 0x6e, 0x73, 0x65, 0x5f, 0x31, 0x5f, 0x32,
    0x2f, 0x52, 0x65, 0x6c, 0x75, 0x3b, 0x73, 0x65, 0x71, 0x75, 0x65, 0x6e,
    0x74, 0x69, 0x61, 0x6c, 0x5f, 0x31, 0x2f, 0x64, 0x65, 0x6e, 0x73, 0x65,
    0x5f, 0x31, 0x5f, 0x32, 0x2f, 0x42, 0x69, 0x61, 0x73, 0x41, 0x64, 0x64,
    0x00, 0x00, 0x00, 0x00, 0x02, 0x00, 0x00, 0x00, 0x01, 0x00, 0x00, 0x00,
    0x10, 0x00, 0x00, 0x00, 0xb2, 0xfd, 0xff, 0xff, 0x00, 0x00, 0x00, 0x01,
    0x14, 0x00, 0x00, 0x00, 0x1c, 0x00, 0x00, 0x00, 0x1c, 0x00, 0x00, 0x00,
    0x08, 0x00, 0x00, 0x00, 0x6c, 0x00, 0x00, 0x00, 0x02, 0x00, 0x00, 0x00,
    0xff, 0xff, 0xff, 0xff, 0x10, 0x00, 0x00, 0x00, 0x9c, 0xfd, 0xff, 0xff,
    0x52, 0x00, 0x00, 0x00, 0x73, 0x65, 0x71, 0x75, 0x65, 0x6e, 0x74, 0x69,
    0x61, 0x6c, 0x5f, 0x31, 0x2f, 0x64, 0x65, 0x6e, 0x73, 0x65, 0x5f, 0x31,
    0x2f, 0x4d, 0x61, 0x74, 0x4d, 0x75, 0x6c, 0x3b, 0x73, 0x65, 0x71, 0x75,
    0x65, 0x6e, 0x74, 0x69, 0x61, 0x6c, 0x5f, 0x31, 0x2f, 0x64, 0x65, 0x6e,
    0x73, 0x65, 0x5f, 0x31, 0x2f, 0x52, 0x65, 0x6c, 0x75, 0x3b, 0x73, 0x65,
    0x71, 0x75, 0x65, 0x6e, 0x74, 0x69, 0x61, 0x6c, 0x5f, 0x31, 0x2f, 0x64,
    0x65, 0x6e, 0x73, 0x65, 0x5f, 0x31, 0x2f, 0x42, 0x69, 0x61, 0x73, 0x41,
    0x64, 0x64, 0x00, 0x00, 0x02, 0x00, 0x00, 0x00, 0x01, 0x00, 0x00, 0x00,
    0x10, 0x00, 0x00, 0x00, 0x96, 0xfe, 0xff, 0xff, 0x00, 0x00, 0x00, 0x01,
    0x10, 0x00, 0x00, 0x00, 0x10, 0x00, 0x00, 0x00, 0x07, 0x00, 0x00, 0x00,
    0x28, 0x00, 0x00, 0x00, 0x1c, 0xfe, 0xff, 0xff, 0x1b, 0x00, 0x00, 0x00,
    0x73, 0x65, 0x71, 0x75, 0x65, 0x6e, 0x74, 0x69, 0x61, 0x6c, 0x5f, 0x31,
    0x2f, 0x64, 0x65, 0x6e, 0x73, 0x65, 0x5f, 0x31, 0x2f, 0x4d, 0x61, 0x74,
    0x4d, 0x75, 0x6c, 0x00, 0x02, 0x00, 0x00, 0x00, 0x10, 0x00, 0x00, 0x00,
    0x01, 0x00, 0x00, 0x00, 0xde, 0xfe, 0xff, 0xff, 0x00, 0x00, 0x00, 0x01,
    0x10, 0x00, 0x00, 0x00, 0x10, 0x00, 0x00, 0x00, 0x06, 0x00, 0x00, 0x00,
    0x38, 0x00, 0x00, 0x00, 0x64, 0xfe, 0xff, 0xff, 0x2b, 0x00, 0x00, 0x00,
    0x73, 0x65, 0x71, 0x75, 0x65, 0x6e, 0x74, 0x69, 0x61, 0x6c, 0x5f, 0x31,
    0x2f, 0x64, 0x65, 0x6e, 0x73, 0x65, 0x5f, 0x31, 0x2f, 0x42, 0x69, 0x61,
    0x73, 0x41, 0x64, 0x64, 0x2f, 0x52, 0x65, 0x61, 0x64, 0x56, 0x61, 0x72,
    0x69, 0x61, 0x62, 0x6c, 0x65, 0x4f, 0x70, 0x00, 0x01, 0x00, 0x00, 0x00,
    0x10, 0x00, 0x00, 0x00, 0x32, 0xff, 0xff, 0xff, 0x00, 0x00, 0x00, 0x01,
    0x10, 0x00, 0x00, 0x00, 0x10, 0x00, 0x00, 0x00, 0x05, 0x00, 0x00, 0x00,
    0x3c, 0x00, 0x00, 0x00, 0xb8, 0xfe, 0xff, 0xff, 0x2d, 0x00, 0x00, 0x00,
    0x73, 0x65, 0x71, 0x75, 0x65, 0x6e, 0x74, 0x69, 0x61, 0x6c, 0x5f, 0x31,
    0x2f, 0x64, 0x65, 0x6e, 0x73, 0x65, 0x5f, 0x31, 0x5f, 0x32, 0x2f, 0x42,
    0x69, 0x61, 0x73, 0x41, 0x64, 0x64, 0x2f, 0x52, 0x65, 0x61, 0x64, 0x56,
    0x61, 0x72, 0x69, 0x61, 0x62, 0x6c, 0x65, 0x4f, 0x70, 0x00, 0x00, 0x00,
    0x01, 0x00, 0x00, 0x00, 0x10, 0x00, 0x00, 0x00, 0x8a, 0xff, 0xff, 0xff,
    0x00, 0x00, 0x00, 0x01, 0x10, 0x00, 0x00, 0x00, 0x10, 0x00, 0x00, 0x00,
    0x04, 0x00, 0x00, 0x00, 0x1c, 0x00, 0x00, 0x00, 0x10, 0xff, 0xff, 0xff,
    0x0f, 0x00, 0x00, 0x00, 0x61, 0x72, 0x69, 0x74, 0x68, 0x2e, 0x63, 0x6f,
    0x6e, 0x73, 0x74, 0x61, 0x6e, 0x74, 0x32, 0x00, 0x01, 0x00, 0x00, 0x00,
    0x01, 0x00, 0x00, 0x00, 0xc2, 0xff, 0xff, 0xff, 0x00, 0x00, 0x00, 0x01,
    0x10, 0x00, 0x00, 0x00, 0x10, 0x00, 0x00, 0x00, 0x03, 0x00, 0x00, 0x00,
    0x1c, 0x00, 0x00, 0x00, 0x48, 0xff, 0xff, 0xff, 0x0f, 0x00, 0x00, 0x00,
    0x61, 0x72, 0x69, 0x74, 0x68, 0x2e, 0x63, 0x6f, 0x6e, 0x73, 0x74, 0x61,
    0x6e, 0x74, 0x31, 0x00, 0x02, 0x00, 0x00, 0x00, 0x10, 0x00, 0x00, 0x00,
    0x10, 0x00, 0x00, 0x00, 0x00, 0x00, 0x16, 0x00, 0x18, 0x00, 0x14, 0x00,
    0x00, 0x00, 0x10, 0x00, 0x0c, 0x00, 0x08, 0x00, 0x00, 0x00, 0x00, 0x00,
    0x00, 0x00, 0x07, 0x00, 0x16, 0x00, 0x00, 0x00, 0x00, 0x00, 0x00, 0x01,
    0x10, 0x00, 0x00, 0x00, 0x10, 0x00, 0x00, 0x00, 0x02, 0x00, 0x00, 0x00,
    0x1c, 0x00, 0x00, 0x00, 0x9c, 0xff, 0xff, 0xff, 0x0e, 0x00, 0x00, 0x00,
    0x61, 0x72, 0x69, 0x74, 0x68, 0x2e, 0x63, 0x6f, 0x6e, 0x73, 0x74, 0x61,
    0x6e, 0x74, 0x00, 0x00, 0x02, 0x00, 0x00, 0x00, 0x01, 0x00, 0x00, 0x00,
    0x10, 0x00, 0x00, 0x00, 0x00, 0x00, 0x16, 0x00, 0x1c, 0x00, 0x18, 0x00,
    0x00, 0x00, 0x14, 0x00, 0x10, 0x00, 0x0c, 0x00, 0x00, 0x00, 0x00, 0x00,
    0x08, 0x00, 0x07, 0x00, 0x16, 0x00, 0x00, 0x00, 0x00, 0x00, 0x00, 0x01,
    0x14, 0x00, 0x00, 0x00, 0x20, 0x00, 0x00, 0x00, 0x20, 0x00, 0x00, 0x00,
    0x01, 0x00, 0x00, 0x00, 0x3c, 0x00, 0x00, 0x00, 0x02, 0x00, 0x00, 0x00,
    0xff, 0xff, 0xff, 0xff, 0x01, 0x00, 0x00, 0x00, 0x04, 0x00, 0x04, 0x00,
    0x04, 0x00, 0x00, 0x00, 0x1e, 0x00, 0x00, 0x00, 0x73, 0x65, 0x72, 0x76,
    0x69, 0x6e, 0x67, 0x5f, 0x64, 0x65, 0x66, 0x61, 0x75, 0x6c, 0x74, 0x5f,
    0x6b, 0x65, 0x72, 0x61, 0x73, 0x5f, 0x74, 0x65, 0x6e, 0x73, 0x6f, 0x72,
    0x3a, 0x30, 0x00, 0x00, 0x02, 0x00, 0x00, 0x00, 0x01, 0x00, 0x00, 0x00,
    0x01, 0x00, 0x00, 0x00, 0x01, 0x00, 0x00, 0x00, 0x10, 0x00, 0x00, 0x00,
    0x0c, 0x00, 0x0c, 0x00, 0x0b, 0x00, 0x00, 0x00, 0x00, 0x00, 0x04, 0x00,
    0x0c, 0x00, 0x00, 0x00, 0x09, 0x00, 0x00, 0x00, 0x00, 0x00, 0x00, 0x09,
};

const int g_model_len = 3168;
