#include "model32.h"

alignas(8) const unsigned char g_sine_model_float32[] = {
    0x1c, 0x00, 0x00, 0x00, 0x54, 0x46, 0x4c, 0x33, 0x14, 0x00, 0x20, 0x00,
    0x1c, 0x00, 0x18, 0x00, 0x14, 0x00, 0x10, 0x00, 0x0c, 0x00, 0x00, 0x00,
    0x08, 0x00, 0x04, 0x00, 0x14, 0x00, 0x00, 0x00, 0x1c, 0x00, 0x00, 0x00,
    0x98, 0x00, 0x00, 0x00, 0xf0, 0x00, 0x00, 0x00, 0x14, 0x07, 0x00, 0x00,
    0x24, 0x07, 0x00, 0x00, 0x08, 0x0c, 0x00, 0x00, 0x03, 0x00, 0x00, 0x00,
    0x01, 0x00, 0x00, 0x00, 0x10, 0x00, 0x00, 0x00, 0x00, 0x00, 0x0a, 0x00,
    0x10, 0x00, 0x0c, 0x00, 0x08, 0x00, 0x04, 0x00, 0x0a, 0x00, 0x00, 0x00,
    0x0c, 0x00, 0x00, 0x00, 0x1c, 0x00, 0x00, 0x00, 0x3c, 0x00, 0x00, 0x00,
    0x0f, 0x00, 0x00, 0x00, 0x73, 0x65, 0x72, 0x76, 0x69, 0x6e, 0x67, 0x5f,
    0x64, 0x65, 0x66, 0x61, 0x75, 0x6c, 0x74, 0x00, 0x01, 0x00, 0x00, 0x00,
    0x04, 0x00, 0x00, 0x00, 0x90, 0xff, 0xff, 0xff, 0x09, 0x00, 0x00, 0x00,
    0x04, 0x00, 0x00, 0x00, 0x08, 0x00, 0x00, 0x00, 0x6f, 0x75, 0x74, 0x70,
    0x75, 0x74, 0x5f, 0x30, 0x00, 0x00, 0x00, 0x00, 0x01, 0x00, 0x00, 0x00,
    0x04, 0x00, 0x00, 0x00, 0xba, 0xf9, 0xff, 0xff, 0x04, 0x00, 0x00, 0x00,
    0x0e, 0x00, 0x00, 0x00, 0x6b, 0x65, 0x72, 0x61, 0x73, 0x5f, 0x74, 0x65,
    0x6e, 0x73, 0x6f, 0x72, 0x5f, 0x34, 0x00, 0x00, 0x02, 0x00, 0x00, 0x00,
    0x34, 0x00, 0x00, 0x00, 0x04, 0x00, 0x00, 0x00, 0xdc, 0xff, 0xff, 0xff,
    0x0c, 0x00, 0x00, 0x00, 0x04, 0x00, 0x00, 0x00, 0x13, 0x00, 0x00, 0x00,
    0x43, 0x4f, 0x4e, 0x56, 0x45, 0x52, 0x53, 0x49, 0x4f, 0x4e, 0x5f, 0x4d,
    0x45, 0x54, 0x41, 0x44, 0x41, 0x54, 0x41, 0x00, 0x08, 0x00, 0x0c, 0x00,
    0x08, 0x00, 0x04, 0x00, 0x08, 0x00, 0x00, 0x00, 0x0b, 0x00, 0x00, 0x00,
    0x04, 0x00, 0x00, 0x00, 0x13, 0x00, 0x00, 0x00, 0x6d, 0x69, 0x6e, 0x5f,
    0x72, 0x75, 0x6e, 0x74, 0x69, 0x6d, 0x65, 0x5f, 0x76, 0x65, 0x72, 0x73,
    0x69, 0x6f, 0x6e, 0x00, 0x0d, 0x00, 0x00, 0x00, 0x20, 0x06, 0x00, 0x00,
    0x18, 0x06, 0x00, 0x00, 0xc8, 0x05, 0x00, 0x00, 0xb0, 0x01, 0x00, 0x00,
    0x9c, 0x01, 0x00, 0x00, 0x4c, 0x01, 0x00, 0x00, 0xfc, 0x00, 0x00, 0x00,
    0xac, 0x00, 0x00, 0x00, 0xa4, 0x00, 0x00, 0x00, 0x9c, 0x00, 0x00, 0x00,
    0x94, 0x00, 0x00, 0x00, 0x74, 0x00, 0x00, 0x00, 0x04, 0x00, 0x00, 0x00,
    0x6a, 0xfa, 0xff, 0xff, 0x04, 0x00, 0x00, 0x00, 0x60, 0x00, 0x00, 0x00,
    0x10, 0x00, 0x00, 0x00, 0x00, 0x00, 0x00, 0x00, 0x08, 0x00, 0x0e, 0x00,
    0x08, 0x00, 0x04, 0x00, 0x08, 0x00, 0x00, 0x00, 0x10, 0x00, 0x00, 0x00,
    0x24, 0x00, 0x00, 0x00, 0x00, 0x00, 0x06, 0x00, 0x08, 0x00, 0x04, 0x00,
    0x06, 0x00, 0x00, 0x00, 0x04, 0x00, 0x00, 0x00, 0x00, 0x00, 0x00, 0x00,
    0x0c, 0x00, 0x18, 0x00, 0x14, 0x00, 0x10, 0x00, 0x0c, 0x00, 0x04, 0x00,
    0x0c, 0x00, 0x00, 0x00, 0xec, 0xb7, 0xa8, 0x9a, 0xd0, 0xf4, 0x0a, 0xe3,
    0x02, 0x00, 0x00, 0x00, 0x02, 0x00, 0x00, 0x00, 0x04, 0x00, 0x00, 0x00,
    0x06, 0x00, 0x00, 0x00, 0x32, 0x2e, 0x31, 0x39, 0x2e, 0x30, 0x00, 0x00,
    0xd6, 0xfa, 0xff, 0xff, 0x04, 0x00, 0x00, 0x00, 0x10, 0x00, 0x00, 0x00,
    0x31, 0x2e, 0x35, 0x2e, 0x30, 0x00, 0x00, 0x00, 0x00, 0x00, 0x00, 0x00,
    0x00, 0x00, 0x00, 0x00, 0xd8, 0xf5, 0xff, 0xff, 0xdc, 0xf5, 0xff, 0xff,
    0xe0, 0xf5, 0xff, 0xff, 0xfe, 0xfa, 0xff, 0xff, 0x04, 0x00, 0x00, 0x00,
    0x40, 0x00, 0x00, 0x00, 0x9b, 0x98, 0x04, 0x3e, 0x9b, 0xb6, 0x51, 0x3e,
    0x4c, 0x99, 0x31, 0xbe, 0x1a, 0x8a, 0x64, 0xbe, 0x90, 0xe4, 0x02, 0xbf,
    0xe6, 0x6d, 0xe9, 0xbe, 0x5a, 0xcf, 0x94, 0xbe, 0xa6, 0xd4, 0x0d, 0xbf,
    0xe5, 0x35, 0xf7, 0xbe, 0x13, 0x37, 0xff, 0xbe, 0xf4, 0xe5, 0xb1, 0xbe,
    0xf8, 0x31, 0xe6, 0x3d, 0x81, 0xf4, 0x84, 0x3e, 0xc2, 0xa6, 0xc0, 0x3e,
    0xe4, 0x68, 0x45, 0x3e, 0x22, 0x21, 0x03, 0xbf, 0x4a, 0xfb, 0xff, 0xff,
    0x04, 0x00, 0x00, 0x00, 0x40, 0x00, 0x00, 0x00, 0x1f, 0x67, 0x6a, 0x3e,
    0x32, 0x6c, 0x93, 0x3a, 0x00, 0x00, 0x00, 0x00, 0x00, 0x00, 0x00, 0x00,
    0x00, 0x00, 0x00, 0x00, 0x00, 0x00, 0x00, 0x00, 0x00, 0x00, 0x00, 0x00,
    0x00, 0x00, 0x00, 0x00, 0x00, 0x00, 0x00, 0x00, 0x00, 0x00, 0x00, 0x00,
    0x00, 0x00, 0x00, 0x00, 0x2f, 0xd4, 0x10, 0x3e, 0xe2, 0x7b, 0x2f, 0xbe,
    0xd4, 0x57, 0xac, 0xbc, 0xd4, 0x14, 0x6f, 0xbe, 0x00, 0x00, 0x00, 0x00,
    0x96, 0xfb, 0xff, 0xff, 0x04, 0x00, 0x00, 0x00, 0x40, 0x00, 0x00, 0x00,
    0xcf, 0xf2, 0x11, 0x3f, 0x21, 0x33, 0xc0, 0xbd, 0x00, 0x00, 0x00, 0x00,
    0xbf, 0xfd, 0x64, 0x3e, 0x00, 0x00, 0x00, 0x00, 0xc4, 0x2b, 0xc0, 0x3e,
    0xe6, 0x34, 0x53, 0xbe, 0x12, 0xfc, 0x07, 0xbe, 0x6e, 0x2e, 0xbb, 0x3e,
    0x00, 0x00, 0x00, 0x00, 0xcc, 0xca, 0x8c, 0x3e, 0x50, 0x3a, 0x62, 0xbe,
    0x00, 0x00, 0x00, 0x00, 0x6b, 0x94, 0x66, 0xbe, 0x96, 0xc0, 0x8c, 0x3e,
    0x00, 0x00, 0x00, 0x00, 0xe2, 0xfb, 0xff, 0xff, 0x04, 0x00, 0x00, 0x00,
    0x04, 0x00, 0x00, 0x00, 0x90, 0x3a, 0x92, 0x3e, 0xf2, 0xfb, 0xff, 0xff,
    0x04, 0x00, 0x00, 0x00, 0x00, 0x04, 0x00, 0x00, 0xec, 0x29, 0xd9, 0xbb,
    0xbc, 0x47, 0xce, 0xbf, 0xc4, 0x78, 0x25, 0xbe, 0xf8, 0x41, 0x92, 0xbe,
    0x02, 0x8e, 0x4f, 0x3e, 0xfa, 0xb6, 0xb0, 0xbe, 0xab, 0x7e, 0xd2, 0x3e,
    0x05, 0x11, 0x96, 0x3e, 0xb8, 0x83, 0x64, 0xbe, 0xc2, 0x66, 0x20, 0x3e,
    0x59, 0xaf, 0x88, 0x3e, 0x4a, 0x13, 0x55, 0x3e, 0x7d, 0x27, 0x56, 0x3f,
    0xc5, 0x51, 0x7a, 0xbf, 0x4d, 0x50, 0x09, 0xbf, 0xc0, 0x31, 0x9b, 0x3b,
    0xde, 0xe8, 0xbb, 0x3d, 0xd9, 0x64, 0xa6, 0x3e, 0x33, 0x3b, 0x90, 0x3e,
    0x96, 0x36, 0x05, 0x3e, 0x9c, 0x17, 0x73, 0xbe, 0x79, 0xc4, 0x72, 0xbe,
    0xf2, 0x6e, 0x4b, 0x3e, 0x9a, 0xaa, 0x6b, 0xbe, 0x05, 0x90, 0xb6, 0xbe,
    0x0f, 0x9e, 0xaf, 0x3e, 0xd4, 0x69, 0xa2, 0x3d, 0xd6, 0x28, 0xfa, 0xbd,
    0x36, 0x4e, 0xd0, 0x3e, 0x5e, 0x16, 0xd5, 0xbd, 0xb2, 0x76, 0xab, 0x3e,
    0x0a, 0xc7, 0xd0, 0xbe, 0x20, 0xcd, 0x55, 0x3d, 0x4c, 0xc2, 0xd5, 0x3d,
    0x20, 0x8b, 0x90, 0xbe, 0xd4, 0x5e, 0xbd, 0xbe, 0xf7, 0xbe, 0x88, 0x3e,
    0x77, 0xd3, 0xd1, 0x3e, 0xe8, 0xa3, 0x8e, 0xbe, 0xc8, 0x46, 0x44, 0x3d,
    0xb1, 0x40, 0xaa, 0x3e, 0xbf, 0x8c, 0xc8, 0xbe, 0x17, 0xf9, 0xc2, 0xbe,
    0x2b, 0xc2, 0x5f, 0xbe, 0x96, 0xa5, 0x52, 0x3e, 0x70, 0x78, 0xd0, 0xbe,
    0x22, 0x66, 0x54, 0xbe, 0x09, 0x52, 0x86, 0x3e, 0xe0, 0xfb, 0x12, 0xbe,
    0xac, 0x89, 0xb0, 0xbe, 0xc4, 0x12, 0xba, 0x3d, 0xf6, 0x45, 0x39, 0x3e,
    0x44, 0x35, 0x7a, 0xbe, 0xbc, 0xb3, 0x70, 0xbe, 0xb5, 0xa9, 0xaa, 0x3e,
    0x56, 0x28, 0x35, 0xbe, 0xbf, 0xee, 0x93, 0x3e, 0xd8, 0xc9, 0x3c, 0x3d,
    0xc8, 0x85, 0x43, 0x3d, 0xe0, 0x25, 0x4e, 0x3e, 0x2e, 0x8a, 0x99, 0x3e,
    0x38, 0xbe, 0x0f, 0x3e, 0xac, 0x93, 0x82, 0xbd, 0x7f, 0x01, 0xc4, 0xbe,
    0xaf, 0x14, 0xa2, 0xbe, 0x12, 0x74, 0x03, 0x3e, 0xdf, 0x42, 0xcc, 0x3e,
    0x52, 0x2b, 0xce, 0xbe, 0xd4, 0xcd, 0xe6, 0xbd, 0x14, 0x55, 0xe0, 0x3d,
    0xb6, 0xa4, 0x47, 0x3e, 0x18, 0x81, 0x3c, 0xbd, 0x9b, 0x76, 0xd7, 0x3e,
    0x38, 0x25, 0x65, 0x3d, 0xfa, 0x73, 0x45, 0x3e, 0x33, 0x80, 0xcd, 0xbe,
    0x26, 0x39, 0x7f, 0xbe, 0x8a, 0x1c, 0x0a, 0x3e, 0x43, 0x16, 0xc2, 0x3e,
    0xbc, 0xad, 0xc5, 0xbe, 0xb1, 0x88, 0x75, 0x3e, 0x38, 0x62, 0x07, 0xbd,
    0x50, 0x83, 0xd6, 0xbd, 0xfc, 0xc5, 0xcd, 0xbe, 0x86, 0xa4, 0x9f, 0xbe,
    0xf8, 0x51, 0x80, 0xbd, 0xe0, 0x0e, 0xce, 0x3c, 0x30, 0x20, 0x40, 0x3d,
    0x80, 0xa1, 0x41, 0xbc, 0xa1, 0xa4, 0xbb, 0xbe, 0xcc, 0x31, 0x90, 0xbd,
    0xa2, 0x60, 0xdc, 0x3e, 0x9c, 0x1d, 0x7d, 0x3e, 0x5b, 0xee, 0xcf, 0xbe,
    0x1e, 0x92, 0xa9, 0xbe, 0xc1, 0xf2, 0x96, 0x3e, 0x52, 0x47, 0xc1, 0x3e,
    0x0a, 0xdb, 0xda, 0xbd, 0x17, 0xf0, 0xaa, 0x3e, 0x71, 0x31, 0xd4, 0xbe,
    0x95, 0x3a, 0x62, 0xbe, 0x1c, 0x31, 0xf3, 0xbd, 0x00, 0x4d, 0xb8, 0x3a,
    0x20, 0x2d, 0xa4, 0xbd, 0x16, 0xa9, 0x0a, 0x3e, 0xce, 0x21, 0x6a, 0xbe,
    0x6a, 0xe5, 0x4e, 0x3e, 0x46, 0xb7, 0x20, 0xbe, 0xc6, 0x49, 0x33, 0xbe,
    0x4e, 0x0a, 0xb8, 0x3e, 0x8b, 0xb7, 0xb3, 0xbd, 0xc8, 0x80, 0x5f, 0xbe,
    0x7a, 0x02, 0xcc, 0x3c, 0x29, 0x53, 0x66, 0xbd, 0xee, 0xd4, 0x06, 0xbe,
    0x1b, 0x3d, 0x93, 0x3e, 0x10, 0x21, 0x01, 0x3d, 0x02, 0x3a, 0x11, 0xbe,
    0xdb, 0x60, 0xa5, 0xbe, 0xe8, 0xb4, 0x17, 0x3d, 0x7f, 0x94, 0x96, 0x3e,
    0x92, 0x72, 0x2b, 0xbe, 0xa7, 0xa8, 0xb1, 0x3e, 0x7f, 0x6c, 0xa1, 0xbe,
    0x08, 0x20, 0xe2, 0x3e, 0x46, 0x6f, 0xca, 0x3e, 0x4c, 0x5d, 0xa5, 0x3e,
    0xc1, 0xb0, 0x85, 0x3e, 0x2f, 0xc7, 0xf2, 0x3e, 0x75, 0x01, 0xbe, 0x3e,
    0x00, 0xfa, 0x64, 0x3b, 0x96, 0x4a, 0x26, 0x3e, 0x1f, 0xab, 0x8e, 0x3e,
    0xef, 0x9c, 0x97, 0x3e, 0xbc, 0xa4, 0xbd, 0xbe, 0x0c, 0x45, 0xb2, 0xbd,
    0x88, 0x37, 0x44, 0xbe, 0xcc, 0xa6, 0xaf, 0xbd, 0x17, 0x89, 0xab, 0x3e,
    0xc1, 0x81, 0x15, 0xbe, 0x7b, 0x62, 0xaf, 0x3d, 0x5f, 0xcc, 0xd3, 0xbe,
    0x7a, 0x30, 0x05, 0xbe, 0xeb, 0x20, 0xd6, 0x3e, 0x9c, 0x64, 0xab, 0xbe,
    0x8b, 0xe8, 0x87, 0xbe, 0xba, 0x72, 0x7d, 0x3e, 0xe9, 0xa0, 0x92, 0xbe,
    0xda, 0x6f, 0x4e, 0x3e, 0x46, 0x15, 0x61, 0x3e, 0xb1, 0x9a, 0x6e, 0xbe,
    0x77, 0x9f, 0x63, 0xbe, 0xcf, 0xa2, 0xd3, 0x3e, 0xed, 0x17, 0xa8, 0x3e,
    0x28, 0x20, 0xea, 0xbd, 0xda, 0x5b, 0xb0, 0xbe, 0x38, 0x9f, 0x38, 0x3d,
    0xa6, 0x1c, 0x35, 0xbe, 0xc6, 0x6d, 0x29, 0xbe, 0x02, 0x3c, 0x7e, 0x3e,
    0xa4, 0x9f, 0x40, 0x3e, 0x63, 0xc4, 0x37, 0x3e, 0x5c, 0x87, 0x6f, 0xbe,
    0xba, 0x20, 0x19, 0x3e, 0xbd, 0x3d, 0xb9, 0xbe, 0x1e, 0x49, 0x4b, 0x3e,
    0xac, 0x48, 0xb4, 0x3d, 0x02, 0x95, 0x03, 0x3e, 0xa3, 0x93, 0x86, 0x3e,
    0x66, 0x60, 0x75, 0x3e, 0xe4, 0x78, 0x83, 0x3d, 0x88, 0x06, 0x5b, 0xbe,
    0x53, 0x55, 0xc2, 0xbd, 0xb4, 0x7b, 0xc1, 0x3e, 0xd4, 0x3f, 0x16, 0x3d,
    0xb0, 0x23, 0xcb, 0xbd, 0x19, 0xba, 0x69, 0xbe, 0xc2, 0xaa, 0xa0, 0x3e,
    0xf8, 0xab, 0x59, 0xbe, 0x49, 0xf3, 0xb5, 0xbe, 0x80, 0x99, 0x0a, 0x3d,
    0x44, 0x26, 0xa5, 0xbe, 0xfe, 0x06, 0x73, 0x3e, 0x14, 0x77, 0xd2, 0xbe,
    0xab, 0x92, 0xcf, 0xbe, 0xb0, 0x60, 0xbe, 0xbc, 0x79, 0xd2, 0xae, 0xbe,
    0x4b, 0xca, 0x41, 0x3e, 0x40, 0x5f, 0x9d, 0x3d, 0x47, 0x33, 0xcc, 0x3e,
    0xfe, 0x70, 0xe0, 0xbd, 0xe2, 0x34, 0x56, 0x3e, 0xc8, 0x9d, 0x3b, 0x3d,
    0xb8, 0x82, 0x96, 0xbd, 0x58, 0x67, 0xe2, 0xbd, 0x9c, 0x58, 0xb3, 0xbd,
    0xa2, 0xc8, 0x42, 0x3e, 0x21, 0xb9, 0xa1, 0x3e, 0x2a, 0xc4, 0x25, 0x3e,
    0x28, 0x96, 0x9d, 0xbe, 0x01, 0x06, 0x75, 0xbe, 0x59, 0xf9, 0x4f, 0xbe,
    0xd5, 0x1f, 0x77, 0xbe, 0xf9, 0xd1, 0xc0, 0xbe, 0x2a, 0x50, 0xdd, 0xbe,
    0x4e, 0x74, 0xc2, 0xbe, 0xc0, 0x6a, 0xc5, 0xbb, 0xad, 0xa4, 0xd4, 0x3e,
    0x79, 0xd8, 0x1e, 0x3d, 0x42, 0xa0, 0xba, 0x3e, 0x0b, 0x36, 0x91, 0x3e,
    0xe2, 0x39, 0x2b, 0x3e, 0x52, 0x5a, 0x1e, 0xbe, 0xd8, 0x0c, 0x2b, 0xbd,
    0xf0, 0xe3, 0x53, 0x3d, 0x43, 0xee, 0xbd, 0x3e, 0x4f, 0x3b, 0xc2, 0xbe,
    0x40, 0x0d, 0x04, 0xbc, 0x73, 0xe8, 0x8f, 0xbe, 0x5f, 0x2c, 0x7e, 0xbe,
    0x25, 0x5c, 0xae, 0x3e, 0xbe, 0xfa, 0xab, 0x3e, 0x0f, 0x5a, 0x0c, 0x3e,
    0x50, 0xad, 0xee, 0x3c, 0x0d, 0x16, 0x0c, 0xbe, 0x4b, 0x46, 0x5e, 0x3e,
    0x1c, 0x4d, 0xff, 0x3d, 0x8d, 0xfb, 0xc7, 0x3e, 0xa4, 0x73, 0x97, 0x3d,
    0x5c, 0x06, 0xa0, 0x3d, 0xce, 0xe4, 0x32, 0x3e, 0xae, 0x78, 0x29, 0x3e,
    0x28, 0xe4, 0x80, 0x3d, 0x58, 0xb5, 0x3f, 0x3d, 0x96, 0x0c, 0x84, 0xbe,
    0xde, 0x34, 0xb2, 0x3e, 0xea, 0x4f, 0x43, 0xbe, 0x13, 0x8c, 0x46, 0x3e,
    0xda, 0x4c, 0x21, 0xbd, 0xa4, 0x59, 0x22, 0xbe, 0x6c, 0xa6, 0x28, 0xbe,
    0x60, 0xe5, 0x0f, 0x3d, 0x60, 0x04, 0x02, 0xbc, 0x00, 0x88, 0xbd, 0xbd,
    0x15, 0x91, 0xaf, 0x3e, 0xca, 0xd6, 0x10, 0x3e, 0x10, 0x66, 0xad, 0x3c,
    0xb4, 0x97, 0x5f, 0xbe, 0x1c, 0x31, 0xda, 0xbe, 0xda, 0x0c, 0x19, 0x3e,
    0x64, 0x08, 0x99, 0xbe, 0x4a, 0x88, 0xc2, 0xbe, 0xe7, 0xf3, 0x9a, 0x3e,
    0xc8, 0x88, 0x4d, 0xbd, 0x24, 0xf6, 0xbd, 0x3d, 0x7d, 0x39, 0xce, 0xbe,
    0x00, 0x00, 0x06, 0x00, 0x08, 0x00, 0x04, 0x00, 0x06, 0x00, 0x00, 0x00,
    0x04, 0x00, 0x00, 0x00, 0x40, 0x00, 0x00, 0x00, 0xd7, 0xfa, 0x9a, 0xbf,
    0x5d, 0x16, 0xdd, 0xbe, 0x58, 0xd3, 0xc3, 0x3e, 0x5f, 0x8e, 0x47, 0x3d,
    0xea, 0xf6, 0xce, 0x3e, 0xd1, 0x54, 0x39, 0x3e, 0xe4, 0xc0, 0x09, 0xbe,
    0xc7, 0xde, 0x07, 0xbf, 0x71, 0x6c, 0x8f, 0x3e, 0x67, 0x49, 0x05, 0xbf,
    0x02, 0xef, 0x01, 0x3f, 0xb6, 0x74, 0x0a, 0xbf, 0x70, 0xb6, 0xf2, 0x3e,
    0x25, 0x71, 0xd8, 0xbe, 0x59, 0x80, 0xad, 0x3e, 0x12, 0x3a, 0xb3, 0xbe,
    0x38, 0xfb, 0xff, 0xff, 0x3c, 0xfb, 0xff, 0xff, 0x0f, 0x00, 0x00, 0x00,
    0x4d, 0x4c, 0x49, 0x52, 0x20, 0x43, 0x6f, 0x6e, 0x76, 0x65, 0x72, 0x74,
    0x65, 0x64, 0x2e, 0x00, 0x01, 0x00, 0x00, 0x00, 0x14, 0x00, 0x00, 0x00,
    0x00, 0x00, 0x0e, 0x00, 0x18, 0x00, 0x14, 0x00, 0x10, 0x00, 0x0c, 0x00,
    0x08, 0x00, 0x04, 0x00, 0x0e, 0x00, 0x00, 0x00, 0x14, 0x00, 0x00, 0x00,
    0x1c, 0x00, 0x00, 0x00, 0xd8, 0x00, 0x00, 0x00, 0xdc, 0x00, 0x00, 0x00,
    0xe0, 0x00, 0x00, 0x00, 0x04, 0x00, 0x00, 0x00, 0x6d, 0x61, 0x69, 0x6e,
    0x00, 0x00, 0x00, 0x00, 0x03, 0x00, 0x00, 0x00, 0x80, 0x00, 0x00, 0x00,
    0x38, 0x00, 0x00, 0x00, 0x04, 0x00, 0x00, 0x00, 0x9a, 0xff, 0xff, 0xff,
    0x10, 0x00, 0x00, 0x00, 0x00, 0x00, 0x00, 0x08, 0x0c, 0x00, 0x00, 0x00,
    0x10, 0x00, 0x00, 0x00, 0xb4, 0xfb, 0xff, 0xff, 0x01, 0x00, 0x00, 0x00,
    0x09, 0x00, 0x00, 0x00, 0x03, 0x00, 0x00, 0x00, 0x08, 0x00, 0x00, 0x00,
    0x01, 0x00, 0x00, 0x00, 0x03, 0x00, 0x00, 0x00, 0xca, 0xff, 0xff, 0xff,
    0x10, 0x00, 0x00, 0x00, 0x00, 0x00, 0x00, 0x08, 0x10, 0x00, 0x00, 0x00,
    0x14, 0x00, 0x00, 0x00, 0xba, 0xff, 0xff, 0xff, 0x00, 0x00, 0x00, 0x01,
    0x01, 0x00, 0x00, 0x00, 0x08, 0x00, 0x00, 0x00, 0x03, 0x00, 0x00, 0x00,
    0x07, 0x00, 0x00, 0x00, 0x02, 0x00, 0x00, 0x00, 0x04, 0x00, 0x00, 0x00,
    0x00, 0x00, 0x0e, 0x00, 0x16, 0x00, 0x00, 0x00, 0x10, 0x00, 0x0c, 0x00,
    0x0b, 0x00, 0x04, 0x00, 0x0e, 0x00, 0x00, 0x00, 0x18, 0x00, 0x00, 0x00,
    0x00, 0x00, 0x00, 0x08, 0x18, 0x00, 0x00, 0x00, 0x1c, 0x00, 0x00, 0x00,
    0x00, 0x00, 0x06, 0x00, 0x08, 0x00, 0x07, 0x00, 0x06, 0x00, 0x00, 0x00,
    0x00, 0x00, 0x00, 0x01, 0x01, 0x00, 0x00, 0x00, 0x07, 0x00, 0x00, 0x00,
    0x03, 0x00, 0x00, 0x00, 0x00, 0x00, 0x00, 0x00, 0x06, 0x00, 0x00, 0x00,
    0x05, 0x00, 0x00, 0x00, 0x01, 0x00, 0x00, 0x00, 0x09, 0x00, 0x00, 0x00,
    0x01, 0x00, 0x00, 0x00, 0x00, 0x00, 0x00, 0x00, 0x0a, 0x00, 0x00, 0x00,
    0x74, 0x03, 0x00, 0x00, 0x1c, 0x03, 0x00, 0x00, 0xc4, 0x02, 0x00, 0x00,
    0x88, 0x02, 0x00, 0x00, 0x4c, 0x02, 0x00, 0x00, 0xf0, 0x01, 0x00, 0x00,
    0xa0, 0x01, 0x00, 0x00, 0x00, 0x01, 0x00, 0x00, 0x60, 0x00, 0x00, 0x00,
    0x04, 0x00, 0x00, 0x00, 0xca, 0xfc, 0xff, 0xff, 0x00, 0x00, 0x00, 0x01,
    0x14, 0x00, 0x00, 0x00, 0x1c, 0x00, 0x00, 0x00, 0x1c, 0x00, 0x00, 0x00,
    0x0a, 0x00, 0x00, 0x00, 0x34, 0x00, 0x00, 0x00, 0x02, 0x00, 0x00, 0x00,
    0xff, 0xff, 0xff, 0xff, 0x01, 0x00, 0x00, 0x00, 0xb4, 0xfc, 0xff, 0xff,
    0x1b, 0x00, 0x00, 0x00, 0x53, 0x74, 0x61, 0x74, 0x65, 0x66, 0x75, 0x6c,
    0x50, 0x61, 0x72, 0x74, 0x69, 0x74, 0x69, 0x6f, 0x6e, 0x65, 0x64, 0x43,
    0x61, 0x6c, 0x6c, 0x5f, 0x31, 0x3a, 0x30, 0x00, 0x02, 0x00, 0x00, 0x00,
    0x01, 0x00, 0x00, 0x00, 0x01, 0x00, 0x00, 0x00, 0x22, 0xfd, 0xff, 0xff,
    0x00, 0x00, 0x00, 0x01, 0x14, 0x00, 0x00, 0x00, 0x1c, 0x00, 0x00, 0x00,
    0x1c, 0x00, 0x00, 0x00, 0x09, 0x00, 0x00, 0x00, 0x78, 0x00, 0x00, 0x00,
    0x02, 0x00, 0x00, 0x00, 0xff, 0xff, 0xff, 0xff, 0x10, 0x00, 0x00, 0x00,
    0x0c, 0xfd, 0xff, 0xff, 0x5e, 0x00, 0x00, 0x00, 0x73, 0x65, 0x71, 0x75,
    0x65, 0x6e, 0x74, 0x69, 0x61, 0x6c, 0x5f, 0x31, 0x5f, 0x31, 0x2f, 0x64,
    0x65, 0x6e, 0x73, 0x65, 0x5f, 0x34, 0x5f, 0x31, 0x2f, 0x4d, 0x61, 0x74,
    0x4d, 0x75, 0x6c, 0x3b, 0x73, 0x65, 0x71, 0x75, 0x65, 0x6e, 0x74, 0x69,
    0x61, 0x6c, 0x5f, 0x31, 0x5f, 0x31, 0x2f, 0x64, 0x65, 0x6e, 0x73, 0x65,
    0x5f, 0x34, 0x5f, 0x31, 0x2f, 0x52, 0x65, 0x6c, 0x75, 0x3b, 0x73, 0x65,
    0x71, 0x75, 0x65, 0x6e, 0x74, 0x69, 0x61, 0x6c, 0x5f, 0x31, 0x5f, 0x31,
    0x2f, 0x64, 0x65, 0x6e, 0x73, 0x65, 0x5f, 0x34, 0x5f, 0x31, 0x2f, 0x42,
    0x69, 0x61, 0x73, 0x41, 0x64, 0x64, 0x00, 0x00, 0x02, 0x00, 0x00, 0x00,
    0x01, 0x00, 0x00, 0x00, 0x10, 0x00, 0x00, 0x00, 0xbe, 0xfd, 0xff, 0xff,
    0x00, 0x00, 0x00, 0x01, 0x14, 0x00, 0x00, 0x00, 0x1c, 0x00, 0x00, 0x00,
    0x1c, 0x00, 0x00, 0x00, 0x08, 0x00, 0x00, 0x00, 0x78, 0x00, 0x00, 0x00,
    0x02, 0x00, 0x00, 0x00, 0xff, 0xff, 0xff, 0xff, 0x10, 0x00, 0x00, 0x00,
    0xa8, 0xfd, 0xff, 0xff, 0x5e, 0x00, 0x00, 0x00, 0x73, 0x65, 0x71, 0x75,
    0x65, 0x6e, 0x74, 0x69, 0x61, 0x6c, 0x5f, 0x31, 0x5f, 0x31, 0x2f, 0x64,
    0x65, 0x6e, 0x73, 0x65, 0x5f, 0x33, 0x5f, 0x31, 0x2f, 0x4d, 0x61, 0x74,
    0x4d, 0x75, 0x6c, 0x3b, 0x73, 0x65, 0x71, 0x75, 0x65, 0x6e, 0x74, 0x69,
    0x61, 0x6c, 0x5f, 0x31, 0x5f, 0x31, 0x2f, 0x64, 0x65, 0x6e, 0x73, 0x65,
    0x5f, 0x33, 0x5f, 0x31, 0x2f, 0x52, 0x65, 0x6c, 0x75, 0x3b, 0x73, 0x65,
    0x71, 0x75, 0x65, 0x6e, 0x74, 0x69, 0x61, 0x6c, 0x5f, 0x31, 0x5f, 0x31,
    0x2f, 0x64, 0x65, 0x6e, 0x73, 0x65, 0x5f, 0x33, 0x5f, 0x31, 0x2f, 0x42,
    0x69, 0x61, 0x73, 0x41, 0x64, 0x64, 0x00, 0x00, 0x02, 0x00, 0x00, 0x00,
    0x01, 0x00, 0x00, 0x00, 0x10, 0x00, 0x00, 0x00, 0xae, 0xfe, 0xff, 0xff,
    0x00, 0x00, 0x00, 0x01, 0x10, 0x00, 0x00, 0x00, 0x10, 0x00, 0x00, 0x00,
    0x07, 0x00, 0x00, 0x00, 0x2c, 0x00, 0x00, 0x00, 0x34, 0xfe, 0xff, 0xff,
    0x1f, 0x00, 0x00, 0x00, 0x73, 0x65, 0x71, 0x75, 0x65, 0x6e, 0x74, 0x69,
    0x61, 0x6c, 0x5f, 0x31, 0x5f, 0x31, 0x2f, 0x64, 0x65, 0x6e, 0x73, 0x65,
    0x5f, 0x33, 0x5f, 0x31, 0x2f, 0x4d, 0x61, 0x74, 0x4d, 0x75, 0x6c, 0x00,
    0x02, 0x00, 0x00, 0x00, 0x10, 0x00, 0x00, 0x00, 0x01, 0x00, 0x00, 0x00,
    0xfa, 0xfe, 0xff, 0xff, 0x00, 0x00, 0x00, 0x01, 0x10, 0x00, 0x00, 0x00,
    0x10, 0x00, 0x00, 0x00, 0x06, 0x00, 0x00, 0x00, 0x3c, 0x00, 0x00, 0x00,
    0x80, 0xfe, 0xff, 0xff, 0x2f, 0x00, 0x00, 0x00, 0x73, 0x65, 0x71, 0x75,
    0x65, 0x6e, 0x74, 0x69, 0x61, 0x6c, 0x5f, 0x31, 0x5f, 0x31, 0x2f, 0x64,
    0x65, 0x6e, 0x73, 0x65, 0x5f, 0x33, 0x5f, 0x31, 0x2f, 0x42, 0x69, 0x61,
    0x73, 0x41, 0x64, 0x64, 0x2f, 0x52, 0x65, 0x61, 0x64, 0x56, 0x61, 0x72,
    0x69, 0x61, 0x62, 0x6c, 0x65, 0x4f, 0x70, 0x00, 0x01, 0x00, 0x00, 0x00,
    0x10, 0x00, 0x00, 0x00, 0x52, 0xff, 0xff, 0xff, 0x00, 0x00, 0x00, 0x01,
    0x10, 0x00, 0x00, 0x00, 0x10, 0x00, 0x00, 0x00, 0x05, 0x00, 0x00, 0x00,
    0x1c, 0x00, 0x00, 0x00, 0xd8, 0xfe, 0xff, 0xff, 0x0f, 0x00, 0x00, 0x00,
    0x61, 0x72, 0x69, 0x74, 0x68, 0x2e, 0x63, 0x6f, 0x6e, 0x73, 0x74, 0x61,
    0x6e, 0x74, 0x33, 0x00, 0x01, 0x00, 0x00, 0x00, 0x10, 0x00, 0x00, 0x00,
    0x8a, 0xff, 0xff, 0xff, 0x00, 0x00, 0x00, 0x01, 0x10, 0x00, 0x00, 0x00,
    0x10, 0x00, 0x00, 0x00, 0x04, 0x00, 0x00, 0x00, 0x1c, 0x00, 0x00, 0x00,
    0x10, 0xff, 0xff, 0xff, 0x0f, 0x00, 0x00, 0x00, 0x61, 0x72, 0x69, 0x74,
    0x68, 0x2e, 0x63, 0x6f, 0x6e, 0x73, 0x74, 0x61, 0x6e, 0x74, 0x32, 0x00,
    0x01, 0x00, 0x00, 0x00, 0x01, 0x00, 0x00, 0x00, 0xc2, 0xff, 0xff, 0xff,
    0x00, 0x00, 0x00, 0x01, 0x10, 0x00, 0x00, 0x00, 0x10, 0x00, 0x00, 0x00,
    0x03, 0x00, 0x00, 0x00, 0x1c, 0x00, 0x00, 0x00, 0x48, 0xff, 0xff, 0xff,
    0x0f, 0x00, 0x00, 0x00, 0x61, 0x72, 0x69, 0x74, 0x68, 0x2e, 0x63, 0x6f,
    0x6e, 0x73, 0x74, 0x61, 0x6e, 0x74, 0x31, 0x00, 0x02, 0x00, 0x00, 0x00,
    0x10, 0x00, 0x00, 0x00, 0x10, 0x00, 0x00, 0x00, 0x00, 0x00, 0x16, 0x00,
    0x18, 0x00, 0x14, 0x00, 0x00, 0x00, 0x10, 0x00, 0x0c, 0x00, 0x08, 0x00,
    0x00, 0x00, 0x00, 0x00, 0x00, 0x00, 0x07, 0x00, 0x16, 0x00, 0x00, 0x00,
    0x00, 0x00, 0x00, 0x01, 0x10, 0x00, 0x00, 0x00, 0x10, 0x00, 0x00, 0x00,
    0x02, 0x00, 0x00, 0x00, 0x1c, 0x00, 0x00, 0x00, 0x9c, 0xff, 0xff, 0xff,
    0x0e, 0x00, 0x00, 0x00, 0x61, 0x72, 0x69, 0x74, 0x68, 0x2e, 0x63, 0x6f,
    0x6e, 0x73, 0x74, 0x61, 0x6e, 0x74, 0x00, 0x00, 0x02, 0x00, 0x00, 0x00,
    0x01, 0x00, 0x00, 0x00, 0x10, 0x00, 0x00, 0x00, 0x00, 0x00, 0x16, 0x00,
    0x1c, 0x00, 0x18, 0x00, 0x00, 0x00, 0x14, 0x00, 0x10, 0x00, 0x0c, 0x00,
    0x00, 0x00, 0x00, 0x00, 0x08, 0x00, 0x07, 0x00, 0x16, 0x00, 0x00, 0x00,
    0x00, 0x00, 0x00, 0x01, 0x14, 0x00, 0x00, 0x00, 0x20, 0x00, 0x00, 0x00,
    0x20, 0x00, 0x00, 0x00, 0x01, 0x00, 0x00, 0x00, 0x40, 0x00, 0x00, 0x00,
    0x02, 0x00, 0x00, 0x00, 0xff, 0xff, 0xff, 0xff, 0x01, 0x00, 0x00, 0x00,
    0x04, 0x00, 0x04, 0x00, 0x04, 0x00, 0x00, 0x00, 0x20, 0x00, 0x00, 0x00,
    0x73, 0x65, 0x72, 0x76, 0x69, 0x6e, 0x67, 0x5f, 0x64, 0x65, 0x66, 0x61,
    0x75, 0x6c, 0x74, 0x5f, 0x6b, 0x65, 0x72, 0x61, 0x73, 0x5f, 0x74, 0x65,
    0x6e, 0x73, 0x6f, 0x72, 0x5f, 0x34, 0x3a, 0x30, 0x00, 0x00, 0x00, 0x00,
    0x02, 0x00, 0x00, 0x00, 0x01, 0x00, 0x00, 0x00, 0x01, 0x00, 0x00, 0x00,
    0x01, 0x00, 0x00, 0x00, 0x10, 0x00, 0x00, 0x00, 0x0c, 0x00, 0x0c, 0x00,
    0x0b, 0x00, 0x00, 0x00, 0x00, 0x00, 0x04, 0x00, 0x0c, 0x00, 0x00, 0x00,
    0x09, 0x00, 0x00, 0x00, 0x00, 0x00, 0x00, 0x09,
};

const int g_sine_model_float32_len = 3164;
